// File được sinh tự động. Model size: 2892 bytes
#ifndef TINYML_MODEL_H
#define TINYML_MODEL_H

// Align to 8 bytes for optimal ESP32 memory access
const unsigned char dht_anomaly_model_tflite[] __attribute__((aligned(8))) = {
  0x1c, 0x00, 0x00, 0x00, 0x54, 0x46, 0x4c, 0x33, 0x14, 0x00, 0x20, 0x00,
  0x1c, 0x00, 0x18, 0x00, 0x14, 0x00, 0x10, 0x00, 0x0c, 0x00, 0x00, 0x00,
  0x08, 0x00, 0x04, 0x00, 0x14, 0x00, 0x00, 0x00, 0x1c, 0x00, 0x00, 0x00,
  0x80, 0x00, 0x00, 0x00, 0xd8, 0x00, 0x00, 0x00, 0x3c, 0x05, 0x00, 0x00,
  0x4c, 0x05, 0x00, 0x00, 0xe8, 0x0a, 0x00, 0x00, 0x03, 0x00, 0x00, 0x00,
  0x01, 0x00, 0x00, 0x00, 0x04, 0x00, 0x00, 0x00, 0x76, 0xfa, 0xff, 0xff,
  0x0c, 0x00, 0x00, 0x00, 0x1c, 0x00, 0x00, 0x00, 0x38, 0x00, 0x00, 0x00,
  0x0f, 0x00, 0x00, 0x00, 0x73, 0x65, 0x72, 0x76, 0x69, 0x6e, 0x67, 0x5f,
  0x64, 0x65, 0x66, 0x61, 0x75, 0x6c, 0x74, 0x00, 0x01, 0x00, 0x00, 0x00,
  0x04, 0x00, 0x00, 0x00, 0x9c, 0xff, 0xff, 0xff, 0x0a, 0x00, 0x00, 0x00,
  0x04, 0x00, 0x00, 0x00, 0x07, 0x00, 0x00, 0x00, 0x64, 0x65, 0x6e, 0x73,
  0x65, 0x5f, 0x32, 0x00, 0x01, 0x00, 0x00, 0x00, 0x04, 0x00, 0x00, 0x00,
  0x62, 0xfb, 0xff, 0xff, 0x04, 0x00, 0x00, 0x00, 0x07, 0x00, 0x00, 0x00,
  0x69, 0x6e, 0x70, 0x75, 0x74, 0x5f, 0x31, 0x00, 0x02, 0x00, 0x00, 0x00,
  0x34, 0x00, 0x00, 0x00, 0x04, 0x00, 0x00, 0x00, 0xdc, 0xff, 0xff, 0xff,
  0x0d, 0x00, 0x00, 0x00, 0x04, 0x00, 0x00, 0x00, 0x13, 0x00, 0x00, 0x00,
  0x43, 0x4f, 0x4e, 0x56, 0x45, 0x52, 0x53, 0x49, 0x4f, 0x4e, 0x5f, 0x4d,
  0x45, 0x54, 0x41, 0x44, 0x41, 0x54, 0x41, 0x00, 0x08, 0x00, 0x0c, 0x00,
  0x08, 0x00, 0x04, 0x00, 0x08, 0x00, 0x00, 0x00, 0x0c, 0x00, 0x00, 0x00,
  0x04, 0x00, 0x00, 0x00, 0x13, 0x00, 0x00, 0x00, 0x6d, 0x69, 0x6e, 0x5f,
  0x72, 0x75, 0x6e, 0x74, 0x69, 0x6d, 0x65, 0x5f, 0x76, 0x65, 0x72, 0x73,
  0x69, 0x6f, 0x6e, 0x00, 0x0e, 0x00, 0x00, 0x00, 0x60, 0x04, 0x00, 0x00,
  0x58, 0x04, 0x00, 0x00, 0x28, 0x04, 0x00, 0x00, 0x0c, 0x04, 0x00, 0x00,
  0xbc, 0x03, 0x00, 0x00, 0xec, 0x02, 0x00, 0x00, 0xdc, 0x00, 0x00, 0x00,
  0xac, 0x00, 0x00, 0x00, 0xa4, 0x00, 0x00, 0x00, 0x9c, 0x00, 0x00, 0x00,
  0x94, 0x00, 0x00, 0x00, 0x8c, 0x00, 0x00, 0x00, 0x6c, 0x00, 0x00, 0x00,
  0x04, 0x00, 0x00, 0x00, 0x0e, 0xfc, 0xff, 0xff, 0x04, 0x00, 0x00, 0x00,
  0x58, 0x00, 0x00, 0x00, 0x0c, 0x00, 0x00, 0x00, 0x08, 0x00, 0x0e, 0x00,
  0x08, 0x00, 0x04, 0x00, 0x08, 0x00, 0x00, 0x00, 0x10, 0x00, 0x00, 0x00,
  0x28, 0x00, 0x00, 0x00, 0x00, 0x00, 0x06, 0x00, 0x08, 0x00, 0x04, 0x00,
  0x06, 0x00, 0x00, 0x00, 0x04, 0x00, 0x00, 0x00, 0x01, 0x00, 0x00, 0x00,
  0xea, 0x03, 0x00, 0x00, 0x00, 0x00, 0x0a, 0x00, 0x10, 0x00, 0x0c, 0x00,
  0x08, 0x00, 0x04, 0x00, 0x0a, 0x00, 0x00, 0x00, 0x02, 0x00, 0x00, 0x00,
  0x02, 0x00, 0x00, 0x00, 0x04, 0x00, 0x00, 0x00, 0x06, 0x00, 0x00, 0x00,
  0x32, 0x2e, 0x31, 0x33, 0x2e, 0x30, 0x00, 0x00, 0x72, 0xfc, 0xff, 0xff,
  0x04, 0x00, 0x00, 0x00, 0x10, 0x00, 0x00, 0x00, 0x31, 0x2e, 0x31, 0x34,
  0x2e, 0x30, 0x00, 0x00, 0x00, 0x00, 0x00, 0x00, 0x00, 0x00, 0x00, 0x00,
  0xd4, 0xf6, 0xff, 0xff, 0xd8, 0xf6, 0xff, 0xff, 0xdc, 0xf6, 0xff, 0xff,
  0xe0, 0xf6, 0xff, 0xff, 0x9e, 0xfc, 0xff, 0xff, 0x04, 0x00, 0x00, 0x00,
  0x20, 0x00, 0x00, 0x00, 0xb5, 0xc2, 0x19, 0x3f, 0x10, 0x75, 0x28, 0x3f,
  0x76, 0x04, 0x0a, 0x3f, 0x9c, 0x7d, 0xf2, 0x3e, 0x80, 0x9b, 0x02, 0xbf,
  0x40, 0x98, 0x2f, 0xbe, 0xff, 0xe1, 0x96, 0x3e, 0xbe, 0xbe, 0x16, 0xbf,
  0xca, 0xfc, 0xff, 0xff, 0x04, 0x00, 0x00, 0x00, 0x00, 0x02, 0x00, 0x00,
  0xc7, 0x35, 0x47, 0x3f, 0xe8, 0x9a, 0xec, 0xbb, 0x8e, 0xcc, 0x6c, 0x3e,
  0x2c, 0xd8, 0x90, 0x3e, 0x27, 0xd8, 0x2e, 0xbe, 0x98, 0xa4, 0xd0, 0x3e,
  0x68, 0xb4, 0xc7, 0xbd, 0x18, 0x6b, 0x9e, 0x3e, 0x05, 0x41, 0x9e, 0xbd,
  0x61, 0x56, 0xe0, 0xbd, 0xab, 0xbe, 0x0f, 0xbe, 0x7f, 0x80, 0xc4, 0x3e,
  0x30, 0x87, 0x6a, 0x3e, 0x3b, 0x93, 0x34, 0x3e, 0xd5, 0xe8, 0xd8, 0xbe,
  0x2f, 0xa6, 0x0b, 0x3f, 0x9c, 0x7b, 0x4b, 0x3e, 0x90, 0x08, 0x5a, 0xbe,
  0x2a, 0xfe, 0xbd, 0xbe, 0xa0, 0xfe, 0xd5, 0x3e, 0x35, 0x90, 0xd8, 0x3e,
  0x09, 0x26, 0xe3, 0xbc, 0x7e, 0xdb, 0xa2, 0x3e, 0xf8, 0xeb, 0x96, 0x3e,
  0xc2, 0xac, 0xe5, 0xbe, 0x03, 0x74, 0xd2, 0x3d, 0xc2, 0x03, 0xb6, 0x3e,
  0x85, 0x4f, 0x69, 0x3e, 0x00, 0x7d, 0x55, 0x3e, 0x42, 0x5f, 0x39, 0xbe,
  0x0e, 0x56, 0x79, 0x3e, 0xab, 0x3d, 0x9b, 0x3d, 0x81, 0x55, 0x87, 0x3e,
  0xd5, 0x42, 0x6e, 0x3e, 0x40, 0xb6, 0xf5, 0xbe, 0x2c, 0x66, 0xcb, 0x3e,
  0x89, 0x5d, 0x4e, 0x3e, 0xca, 0x92, 0x18, 0x3e, 0xa8, 0x26, 0x67, 0x3e,
  0x10, 0x0d, 0xfb, 0xbe, 0x4b, 0xd7, 0xf6, 0xbe, 0xed, 0xc7, 0x9e, 0x3e,
  0x6c, 0xd5, 0xa9, 0x3d, 0x00, 0xc8, 0xa4, 0xbe, 0xf8, 0x8c, 0x52, 0x3e,
  0x66, 0xb3, 0x35, 0xbd, 0x34, 0x31, 0x76, 0xbe, 0xdb, 0x7a, 0x96, 0x3e,
  0x79, 0x9d, 0xdc, 0x3e, 0xe1, 0xcc, 0xb7, 0xbe, 0x77, 0xe6, 0x0d, 0x3d,
  0x40, 0x7e, 0xf5, 0xbd, 0x2e, 0x64, 0xc7, 0xbe, 0x29, 0xed, 0x91, 0x3e,
  0xf6, 0xd3, 0x9b, 0xbd, 0xa0, 0xfc, 0x43, 0x3d, 0xc8, 0xf2, 0x88, 0x3e,
  0xea, 0x71, 0x91, 0x3e, 0x74, 0x25, 0x6a, 0xbd, 0x55, 0x41, 0xd5, 0x3d,
  0x98, 0xd3, 0x88, 0x3e, 0x90, 0xc7, 0x3e, 0xbe, 0xa9, 0x27, 0xac, 0xbe,
  0xd3, 0x33, 0xa1, 0x3e, 0x27, 0x90, 0x5a, 0x3e, 0xe4, 0x2b, 0xa6, 0x3e,
  0xfe, 0x67, 0xc0, 0xbe, 0xc0, 0x01, 0x21, 0x3e, 0x22, 0x5c, 0x81, 0x3d,
  0x34, 0x25, 0xc6, 0x3e, 0x46, 0x48, 0xfc, 0x3d, 0xac, 0xa0, 0xa4, 0xbe,
  0x37, 0xd2, 0xc0, 0xbe, 0x64, 0x32, 0xb1, 0x3e, 0x62, 0xc4, 0xbe, 0x3e,
  0x49, 0x46, 0x0b, 0xbd, 0x20, 0xae, 0x32, 0x3d, 0xe1, 0x53, 0xf8, 0xbd,
  0xb4, 0x41, 0xd4, 0xbd, 0x9d, 0xe8, 0xd8, 0x3e, 0xc6, 0x51, 0xa6, 0x3e,
  0xbe, 0xbc, 0xfd, 0xbd, 0xd6, 0xe4, 0x90, 0xbc, 0x1c, 0xe9, 0xde, 0x3e,
  0x29, 0xcc, 0x8b, 0x3e, 0x1a, 0xa1, 0x6a, 0x3d, 0x05, 0x1f, 0x6b, 0xbe,
  0x48, 0xff, 0xd4, 0xbe, 0xa8, 0xca, 0xb0, 0x3e, 0x1e, 0xc3, 0xe9, 0xbe,
  0xe0, 0x62, 0xe3, 0xbe, 0x60, 0xd7, 0x8d, 0xbe, 0x10, 0x36, 0xc8, 0xbe,
  0x16, 0x6c, 0x2d, 0x3c, 0xec, 0x3f, 0xdf, 0x3e, 0x7b, 0xac, 0x3f, 0xbe,
  0x90, 0x8b, 0x5f, 0x3e, 0xb8, 0x80, 0x09, 0x3e, 0x3b, 0x61, 0xe3, 0x3e,
  0x60, 0x97, 0xee, 0x3e, 0x95, 0x89, 0x01, 0xbf, 0x38, 0x10, 0x96, 0xbe,
  0x88, 0xb9, 0xcd, 0x3e, 0x68, 0xae, 0x96, 0xbe, 0x00, 0x7e, 0xd9, 0x3e,
  0xcd, 0xa7, 0x51, 0x3e, 0x58, 0xb2, 0x4d, 0x3e, 0xc3, 0x7f, 0xc3, 0x3e,
  0x38, 0xfb, 0xa6, 0xbe, 0x6c, 0x79, 0xaa, 0xbd, 0xcb, 0x05, 0x6b, 0xbe,
  0xac, 0xf9, 0xd0, 0xbe, 0xda, 0x35, 0xbe, 0xbe, 0xa4, 0x07, 0x93, 0x3d,
  0x7d, 0x0d, 0xc7, 0xbe, 0x20, 0xaf, 0x92, 0x3e, 0xba, 0xdb, 0x9c, 0x3e,
  0x20, 0x6e, 0xd8, 0xbe, 0xfb, 0x4b, 0xa8, 0xbe, 0xa0, 0xb7, 0xa5, 0xbd,
  0x22, 0x5b, 0xac, 0x3e, 0xd5, 0xc1, 0x21, 0x3d, 0x04, 0xb0, 0x95, 0xbe,
  0xd7, 0x21, 0xa2, 0xbd, 0xf0, 0x29, 0xd3, 0xbd, 0x9e, 0xdc, 0x9d, 0xbe,
  0x41, 0xea, 0xa2, 0x3e, 0xac, 0x3e, 0x78, 0xbd, 0xd6, 0xfe, 0xff, 0xff,
  0x04, 0x00, 0x00, 0x00, 0xc0, 0x00, 0x00, 0x00, 0xa5, 0xb0, 0xd7, 0x3e,
  0xd8, 0xcb, 0x63, 0xbe, 0xe2, 0x26, 0x15, 0xbd, 0xb2, 0x39, 0xe3, 0x3e,
  0xfb, 0x9d, 0x70, 0xbd, 0x50, 0x59, 0x8e, 0xbe, 0x29, 0x15, 0xf2, 0xbe,
  0xee, 0x22, 0xd8, 0xbe, 0x63, 0x08, 0x9c, 0x3d, 0x9b, 0x4a, 0xe1, 0xbe,
  0xd2, 0x59, 0xa6, 0xbe, 0xd8, 0x23, 0xfa, 0xbe, 0xc1, 0xfb, 0xcc, 0x3e,
  0x0a, 0x67, 0x63, 0x3e, 0x3b, 0x07, 0xa8, 0x3e, 0x40, 0x33, 0x86, 0x3e,
  0x5c, 0x67, 0xeb, 0x3e, 0xaa, 0x76, 0x79, 0x3e, 0xe5, 0x31, 0x21, 0xbf,
  0x18, 0xc3, 0xa8, 0x3e, 0x1c, 0xe6, 0xe8, 0x3a, 0xa6, 0xfa, 0xd3, 0xbe,
  0x60, 0xce, 0x8a, 0xbd, 0xdc, 0xae, 0xfc, 0xbd, 0x45, 0x31, 0x85, 0x3d,
  0xe6, 0xe1, 0x0e, 0x3f, 0x15, 0x33, 0x43, 0x3e, 0xf1, 0x0c, 0x84, 0x3e,
  0x56, 0x4c, 0xd5, 0x3e, 0x1a, 0xf8, 0x02, 0x3f, 0x17, 0x6b, 0xc3, 0xbd,
  0xa3, 0x94, 0xf8, 0x3e, 0x6b, 0xd5, 0xcf, 0xbe, 0x4e, 0x57, 0x24, 0x3d,
  0x19, 0xc4, 0xc9, 0xbe, 0xf9, 0x5b, 0x44, 0x3e, 0x34, 0xcf, 0xe8, 0xbe,
  0xcb, 0xc5, 0x09, 0xbf, 0x88, 0x4b, 0xdf, 0xbd, 0xc4, 0xe3, 0x8c, 0x3e,
  0xa8, 0x4b, 0xfe, 0x3b, 0x12, 0x22, 0x90, 0x3d, 0x8a, 0xc3, 0x9c, 0xbe,
  0xb0, 0x5a, 0x7b, 0x3d, 0xad, 0x24, 0x93, 0x3e, 0x71, 0x78, 0x65, 0x3f,
  0x2d, 0x76, 0x07, 0x3f, 0xeb, 0xcf, 0x30, 0xbd, 0xa2, 0xff, 0xff, 0xff,
  0x04, 0x00, 0x00, 0x00, 0x40, 0x00, 0x00, 0x00, 0x7d, 0xf5, 0x99, 0x3c,
  0xbe, 0xe1, 0x44, 0xbd, 0x51, 0x56, 0x7e, 0xbc, 0x00, 0x00, 0x00, 0x00,
  0xd2, 0x54, 0xba, 0xbd, 0x02, 0x74, 0x01, 0xbd, 0x3f, 0x7c, 0xa5, 0xbe,
  0x00, 0x00, 0x00, 0x00, 0x84, 0xb9, 0x16, 0x38, 0x83, 0x43, 0xa1, 0xbc,
  0x79, 0xc9, 0xb2, 0xbc, 0x19, 0xe1, 0xf1, 0xbc, 0x00, 0x00, 0x00, 0x00,
  0x7f, 0x86, 0x13, 0xbe, 0x65, 0x65, 0x26, 0x3c, 0xa0, 0xcc, 0xdf, 0x3f,
  0xee, 0xff, 0xff, 0xff, 0x04, 0x00, 0x00, 0x00, 0x04, 0x00, 0x00, 0x00,
  0xca, 0x13, 0x9e, 0xbb, 0x00, 0x00, 0x06, 0x00, 0x08, 0x00, 0x04, 0x00,
  0x06, 0x00, 0x00, 0x00, 0x04, 0x00, 0x00, 0x00, 0x20, 0x00, 0x00, 0x00,
  0xa7, 0xf6, 0x19, 0xbd, 0xce, 0x82, 0xcb, 0xbb, 0x90, 0xa0, 0x0f, 0xbc,
  0x21, 0x31, 0x0c, 0x3d, 0xde, 0xa1, 0x43, 0x3b, 0x11, 0x22, 0xed, 0xbc,
  0x3c, 0x06, 0x92, 0xbc, 0x8c, 0xe7, 0xf8, 0xbb, 0x78, 0xfa, 0xff, 0xff,
  0x7c, 0xfa, 0xff, 0xff, 0x0f, 0x00, 0x00, 0x00, 0x4d, 0x4c, 0x49, 0x52,
  0x20, 0x43, 0x6f, 0x6e, 0x76, 0x65, 0x72, 0x74, 0x65, 0x64, 0x2e, 0x00,
  0x01, 0x00, 0x00, 0x00, 0x14, 0x00, 0x00, 0x00, 0x00, 0x00, 0x0e, 0x00,
  0x18, 0x00, 0x14, 0x00, 0x10, 0x00, 0x0c, 0x00, 0x08, 0x00, 0x04, 0x00,
  0x0e, 0x00, 0x00, 0x00, 0x14, 0x00, 0x00, 0x00, 0x1c, 0x00, 0x00, 0x00,
  0x08, 0x01, 0x00, 0x00, 0x0c, 0x01, 0x00, 0x00, 0x10, 0x01, 0x00, 0x00,
  0x04, 0x00, 0x00, 0x00, 0x6d, 0x61, 0x69, 0x6e, 0x00, 0x00, 0x00, 0x00,
  0x04, 0x00, 0x00, 0x00, 0xb0, 0x00, 0x00, 0x00, 0x68, 0x00, 0x00, 0x00,
  0x34, 0x00, 0x00, 0x00, 0x10, 0x00, 0x00, 0x00, 0x00, 0x00, 0x0a, 0x00,
  0x10, 0x00, 0x0c, 0x00, 0x08, 0x00, 0x04, 0x00, 0x0a, 0x00, 0x00, 0x00,
  0x0c, 0x00, 0x00, 0x00, 0x10, 0x00, 0x00, 0x00, 0x01, 0x00, 0x00, 0x00,
  0x01, 0x00, 0x00, 0x00, 0x0a, 0x00, 0x00, 0x00, 0x01, 0x00, 0x00, 0x00,
  0x09, 0x00, 0x00, 0x00, 0x9a, 0xff, 0xff, 0xff, 0x10, 0x00, 0x00, 0x00,
  0x00, 0x00, 0x00, 0x08, 0x0c, 0x00, 0x00, 0x00, 0x10, 0x00, 0x00, 0x00,
  0x24, 0xfb, 0xff, 0xff, 0x01, 0x00, 0x00, 0x00, 0x09, 0x00, 0x00, 0x00,
  0x03, 0x00, 0x00, 0x00, 0x08, 0x00, 0x00, 0x00, 0x06, 0x00, 0x00, 0x00,
  0x02, 0x00, 0x00, 0x00, 0xca, 0xff, 0xff, 0xff, 0x10, 0x00, 0x00, 0x00,
  0x00, 0x00, 0x00, 0x08, 0x10, 0x00, 0x00, 0x00, 0x14, 0x00, 0x00, 0x00,
  0xba, 0xff, 0xff, 0xff, 0x00, 0x00, 0x00, 0x01, 0x01, 0x00, 0x00, 0x00,
  0x08, 0x00, 0x00, 0x00, 0x03, 0x00, 0x00, 0x00, 0x07, 0x00, 0x00, 0x00,
  0x05, 0x00, 0x00, 0x00, 0x01, 0x00, 0x00, 0x00, 0x00, 0x00, 0x0e, 0x00,
  0x16, 0x00, 0x00, 0x00, 0x10, 0x00, 0x0c, 0x00, 0x0b, 0x00, 0x04, 0x00,
  0x0e, 0x00, 0x00, 0x00, 0x18, 0x00, 0x00, 0x00, 0x00, 0x00, 0x00, 0x08,
  0x18, 0x00, 0x00, 0x00, 0x1c, 0x00, 0x00, 0x00, 0x00, 0x00, 0x06, 0x00,
  0x08, 0x00, 0x07, 0x00, 0x06, 0x00, 0x00, 0x00, 0x00, 0x00, 0x00, 0x01,
  0x01, 0x00, 0x00, 0x00, 0x07, 0x00, 0x00, 0x00, 0x03, 0x00, 0x00, 0x00,
  0x00, 0x00, 0x00, 0x00, 0x04, 0x00, 0x00, 0x00, 0x03, 0x00, 0x00, 0x00,
  0x01, 0x00, 0x00, 0x00, 0x0a, 0x00, 0x00, 0x00, 0x01, 0x00, 0x00, 0x00,
  0x00, 0x00, 0x00, 0x00, 0x0b, 0x00, 0x00, 0x00, 0x04, 0x04, 0x00, 0x00,
  0x94, 0x03, 0x00, 0x00, 0x24, 0x03, 0x00, 0x00, 0xd0, 0x02, 0x00, 0x00,
  0x88, 0x02, 0x00, 0x00, 0x3c, 0x02, 0x00, 0x00, 0xf0, 0x01, 0x00, 0x00,
  0x68, 0x01, 0x00, 0x00, 0xd8, 0x00, 0x00, 0x00, 0x60, 0x00, 0x00, 0x00,
  0x04, 0x00, 0x00, 0x00, 0x3e, 0xfc, 0xff, 0xff, 0x00, 0x00, 0x00, 0x01,
  0x14, 0x00, 0x00, 0x00, 0x1c, 0x00, 0x00, 0x00, 0x1c, 0x00, 0x00, 0x00,
  0x0b, 0x00, 0x00, 0x00, 0x34, 0x00, 0x00, 0x00, 0x02, 0x00, 0x00, 0x00,
  0xff, 0xff, 0xff, 0xff, 0x01, 0x00, 0x00, 0x00, 0x28, 0xfc, 0xff, 0xff,
  0x19, 0x00, 0x00, 0x00, 0x53, 0x74, 0x61, 0x74, 0x65, 0x66, 0x75, 0x6c,
  0x50, 0x61, 0x72, 0x74, 0x69, 0x74, 0x69, 0x6f, 0x6e, 0x65, 0x64, 0x43,
  0x61, 0x6c, 0x6c, 0x3a, 0x30, 0x00, 0x00, 0x00, 0x02, 0x00, 0x00, 0x00,
  0x01, 0x00, 0x00, 0x00, 0x01, 0x00, 0x00, 0x00, 0x96, 0xfc, 0xff, 0xff,
  0x00, 0x00, 0x00, 0x01, 0x14, 0x00, 0x00, 0x00, 0x1c, 0x00, 0x00, 0x00,
  0x1c, 0x00, 0x00, 0x00, 0x0a, 0x00, 0x00, 0x00, 0x50, 0x00, 0x00, 0x00,
  0x02, 0x00, 0x00, 0x00, 0xff, 0xff, 0xff, 0xff, 0x01, 0x00, 0x00, 0x00,
  0x80, 0xfc, 0xff, 0xff, 0x34, 0x00, 0x00, 0x00, 0x73, 0x65, 0x71, 0x75,
  0x65, 0x6e, 0x74, 0x69, 0x61, 0x6c, 0x2f, 0x64, 0x65, 0x6e, 0x73, 0x65,
  0x5f, 0x32, 0x2f, 0x4d, 0x61, 0x74, 0x4d, 0x75, 0x6c, 0x3b, 0x73, 0x65,
  0x71, 0x75, 0x65, 0x6e, 0x74, 0x69, 0x61, 0x6c, 0x2f, 0x64, 0x65, 0x6e,
  0x73, 0x65, 0x5f, 0x32, 0x2f, 0x42, 0x69, 0x61, 0x73, 0x41, 0x64, 0x64,
  0x00, 0x00, 0x00, 0x00, 0x02, 0x00, 0x00, 0x00, 0x01, 0x00, 0x00, 0x00,
  0x01, 0x00, 0x00, 0x00, 0x0a, 0xfd, 0xff, 0xff, 0x00, 0x00, 0x00, 0x01,
  0x14, 0x00, 0x00, 0x00, 0x1c, 0x00, 0x00, 0x00, 0x1c, 0x00, 0x00, 0x00,
  0x09, 0x00, 0x00, 0x00, 0x68, 0x00, 0x00, 0x00, 0x02, 0x00, 0x00, 0x00,
  0xff, 0xff, 0xff, 0xff, 0x08, 0x00, 0x00, 0x00, 0xf4, 0xfc, 0xff, 0xff,
  0x4c, 0x00, 0x00, 0x00, 0x73, 0x65, 0x71, 0x75, 0x65, 0x6e, 0x74, 0x69,
  0x61, 0x6c, 0x2f, 0x64, 0x65, 0x6e, 0x73, 0x65, 0x5f, 0x31, 0x2f, 0x4d,
  0x61, 0x74, 0x4d, 0x75, 0x6c, 0x3b, 0x73, 0x65, 0x71, 0x75, 0x65, 0x6e,
  0x74, 0x69, 0x61, 0x6c, 0x2f, 0x64, 0x65, 0x6e, 0x73, 0x65, 0x5f, 0x31,
  0x2f, 0x52, 0x65, 0x6c, 0x75, 0x3b, 0x73, 0x65, 0x71, 0x75, 0x65, 0x6e,
  0x74, 0x69, 0x61, 0x6c, 0x2f, 0x64, 0x65, 0x6e, 0x73, 0x65, 0x5f, 0x31,
  0x2f, 0x42, 0x69, 0x61, 0x73, 0x41, 0x64, 0x64, 0x00, 0x00, 0x00, 0x00,
  0x02, 0x00, 0x00, 0x00, 0x01, 0x00, 0x00, 0x00, 0x08, 0x00, 0x00, 0x00,
  0x96, 0xfd, 0xff, 0xff, 0x00, 0x00, 0x00, 0x01, 0x14, 0x00, 0x00, 0x00,
  0x1c, 0x00, 0x00, 0x00, 0x1c, 0x00, 0x00, 0x00, 0x08, 0x00, 0x00, 0x00,
  0x60, 0x00, 0x00, 0x00, 0x02, 0x00, 0x00, 0x00, 0xff, 0xff, 0xff, 0xff,
  0x10, 0x00, 0x00, 0x00, 0x80, 0xfd, 0xff, 0xff, 0x46, 0x00, 0x00, 0x00,
  0x73, 0x65, 0x71, 0x75, 0x65, 0x6e, 0x74, 0x69, 0x61, 0x6c, 0x2f, 0x64,
  0x65, 0x6e, 0x73, 0x65, 0x2f, 0x4d, 0x61, 0x74, 0x4d, 0x75, 0x6c, 0x3b,
  0x73, 0x65, 0x71, 0x75, 0x65, 0x6e, 0x74, 0x69, 0x61, 0x6c, 0x2f, 0x64,
  0x65, 0x6e, 0x73, 0x65, 0x2f, 0x52, 0x65, 0x6c, 0x75, 0x3b, 0x73, 0x65,
  0x71, 0x75, 0x65, 0x6e, 0x74, 0x69, 0x61, 0x6c, 0x2f, 0x64, 0x65, 0x6e,
  0x73, 0x65, 0x2f, 0x42, 0x69, 0x61, 0x73, 0x41, 0x64, 0x64, 0x00, 0x00,
  0x02, 0x00, 0x00, 0x00, 0x01, 0x00, 0x00, 0x00, 0x10, 0x00, 0x00, 0x00,
  0x86, 0xfe, 0xff, 0xff, 0x00, 0x00, 0x00, 0x01, 0x10, 0x00, 0x00, 0x00,
  0x10, 0x00, 0x00, 0x00, 0x07, 0x00, 0x00, 0x00, 0x28, 0x00, 0x00, 0x00,
  0xf4, 0xfd, 0xff, 0xff, 0x19, 0x00, 0x00, 0x00, 0x73, 0x65, 0x71, 0x75,
  0x65, 0x6e, 0x74, 0x69, 0x61, 0x6c, 0x2f, 0x64, 0x65, 0x6e, 0x73, 0x65,
  0x5f, 0x32, 0x2f, 0x4d, 0x61, 0x74, 0x4d, 0x75, 0x6c, 0x00, 0x00, 0x00,
  0x02, 0x00, 0x00, 0x00, 0x01, 0x00, 0x00, 0x00, 0x08, 0x00, 0x00, 0x00,
  0xce, 0xfe, 0xff, 0xff, 0x00, 0x00, 0x00, 0x01, 0x10, 0x00, 0x00, 0x00,
  0x10, 0x00, 0x00, 0x00, 0x06, 0x00, 0x00, 0x00, 0x28, 0x00, 0x00, 0x00,
  0x3c, 0xfe, 0xff, 0xff, 0x19, 0x00, 0x00, 0x00, 0x73, 0x65, 0x71, 0x75,
  0x65, 0x6e, 0x74, 0x69, 0x61, 0x6c, 0x2f, 0x64, 0x65, 0x6e, 0x73, 0x65,
  0x5f, 0x31, 0x2f, 0x4d, 0x61, 0x74, 0x4d, 0x75, 0x6c, 0x00, 0x00, 0x00,
  0x02, 0x00, 0x00, 0x00, 0x08, 0x00, 0x00, 0x00, 0x10, 0x00, 0x00, 0x00,
  0x16, 0xff, 0xff, 0xff, 0x00, 0x00, 0x00, 0x01, 0x10, 0x00, 0x00, 0x00,
  0x10, 0x00, 0x00, 0x00, 0x05, 0x00, 0x00, 0x00, 0x24, 0x00, 0x00, 0x00,
  0x84, 0xfe, 0xff, 0xff, 0x17, 0x00, 0x00, 0x00, 0x73, 0x65, 0x71, 0x75,
  0x65, 0x6e, 0x74, 0x69, 0x61, 0x6c, 0x2f, 0x64, 0x65, 0x6e, 0x73, 0x65,
  0x2f, 0x4d, 0x61, 0x74, 0x4d, 0x75, 0x6c, 0x00, 0x02, 0x00, 0x00, 0x00,
  0x10, 0x00, 0x00, 0x00, 0x03, 0x00, 0x00, 0x00, 0x5a, 0xff, 0xff, 0xff,
  0x00, 0x00, 0x00, 0x01, 0x10, 0x00, 0x00, 0x00, 0x10, 0x00, 0x00, 0x00,
  0x04, 0x00, 0x00, 0x00, 0x34, 0x00, 0x00, 0x00, 0xc8, 0xfe, 0xff, 0xff,
  0x27, 0x00, 0x00, 0x00, 0x73, 0x65, 0x71, 0x75, 0x65, 0x6e, 0x74, 0x69,
  0x61, 0x6c, 0x2f, 0x64, 0x65, 0x6e, 0x73, 0x65, 0x2f, 0x42, 0x69, 0x61,
  0x73, 0x41, 0x64, 0x64, 0x2f, 0x52, 0x65, 0x61, 0x64, 0x56, 0x61, 0x72,
  0x69, 0x61, 0x62, 0x6c, 0x65, 0x4f, 0x70, 0x00, 0x01, 0x00, 0x00, 0x00,
  0x10, 0x00, 0x00, 0x00, 0xaa, 0xff, 0xff, 0xff, 0x00, 0x00, 0x00, 0x01,
  0x10, 0x00, 0x00, 0x00, 0x10, 0x00, 0x00, 0x00, 0x03, 0x00, 0x00, 0x00,
  0x38, 0x00, 0x00, 0x00, 0x18, 0xff, 0xff, 0xff, 0x29, 0x00, 0x00, 0x00,
  0x73, 0x65, 0x71, 0x75, 0x65, 0x6e, 0x74, 0x69, 0x61, 0x6c, 0x2f, 0x64,
  0x65, 0x6e, 0x73, 0x65, 0x5f, 0x32, 0x2f, 0x42, 0x69, 0x61, 0x73, 0x41,
  0x64, 0x64, 0x2f, 0x52, 0x65, 0x61, 0x64, 0x56, 0x61, 0x72, 0x69, 0x61,
  0x62, 0x6c, 0x65, 0x4f, 0x70, 0x00, 0x00, 0x00, 0x01, 0x00, 0x00, 0x00,
  0x01, 0x00, 0x00, 0x00, 0x00, 0x00, 0x16, 0x00, 0x18, 0x00, 0x14, 0x00,
  0x00, 0x00, 0x10, 0x00, 0x0c, 0x00, 0x08, 0x00, 0x00, 0x00, 0x00, 0x00,
  0x00, 0x00, 0x07, 0x00, 0x16, 0x00, 0x00, 0x00, 0x00, 0x00, 0x00, 0x01,
  0x10, 0x00, 0x00, 0x00, 0x10, 0x00, 0x00, 0x00, 0x02, 0x00, 0x00, 0x00,
  0x38, 0x00, 0x00, 0x00, 0x84, 0xff, 0xff, 0xff, 0x29, 0x00, 0x00, 0x00,
  0x73, 0x65, 0x71, 0x75, 0x65, 0x6e, 0x74, 0x69, 0x61, 0x6c, 0x2f, 0x64,
  0x65, 0x6e, 0x73, 0x65, 0x5f, 0x31, 0x2f, 0x42, 0x69, 0x61, 0x73, 0x41,
  0x64, 0x64, 0x2f, 0x52, 0x65, 0x61, 0x64, 0x56, 0x61, 0x72, 0x69, 0x61,
  0x62, 0x6c, 0x65, 0x4f, 0x70, 0x00, 0x00, 0x00, 0x01, 0x00, 0x00, 0x00,
  0x08, 0x00, 0x00, 0x00, 0x00, 0x00, 0x16, 0x00, 0x1c, 0x00, 0x18, 0x00,
  0x00, 0x00, 0x14, 0x00, 0x10, 0x00, 0x0c, 0x00, 0x00, 0x00, 0x00, 0x00,
  0x08, 0x00, 0x07, 0x00, 0x16, 0x00, 0x00, 0x00, 0x00, 0x00, 0x00, 0x01,
  0x14, 0x00, 0x00, 0x00, 0x20, 0x00, 0x00, 0x00, 0x20, 0x00, 0x00, 0x00,
  0x01, 0x00, 0x00, 0x00, 0x38, 0x00, 0x00, 0x00, 0x02, 0x00, 0x00, 0x00,
  0xff, 0xff, 0xff, 0xff, 0x03, 0x00, 0x00, 0x00, 0x04, 0x00, 0x04, 0x00,
  0x04, 0x00, 0x00, 0x00, 0x19, 0x00, 0x00, 0x00, 0x73, 0x65, 0x72, 0x76,
  0x69, 0x6e, 0x67, 0x5f, 0x64, 0x65, 0x66, 0x61, 0x75, 0x6c, 0x74, 0x5f,
  0x69, 0x6e, 0x70, 0x75, 0x74, 0x5f, 0x31, 0x3a, 0x30, 0x00, 0x00, 0x00,
  0x02, 0x00, 0x00, 0x00, 0x01, 0x00, 0x00, 0x00, 0x03, 0x00, 0x00, 0x00,
  0x02, 0x00, 0x00, 0x00, 0x20, 0x00, 0x00, 0x00, 0x04, 0x00, 0x00, 0x00,
  0xf4, 0xff, 0xff, 0xff, 0x0e, 0x00, 0x00, 0x00, 0x00, 0x00, 0x00, 0x0e,
  0x0c, 0x00, 0x0c, 0x00, 0x0b, 0x00, 0x00, 0x00, 0x00, 0x00, 0x04, 0x00,
  0x0c, 0x00, 0x00, 0x00, 0x09, 0x00, 0x00, 0x00, 0x00, 0x00, 0x00, 0x09
};

#endif // TINYML_MODEL_H
